/**
  ******************************************************************************
  * @file    network_data_params.c
  * @author  AST Embedded Analytics Research Platform
  * @date    Wed Jul 31 15:05:45 2024
  * @brief   AI Tool Automatic Code Generator for Embedded NN computing
  ******************************************************************************
  * Copyright (c) 2024 STMicroelectronics.
  * All rights reserved.
  *
  * This software is licensed under terms that can be found in the LICENSE file
  * in the root directory of this software component.
  * If no LICENSE file comes with this software, it is provided AS-IS.
  ******************************************************************************
  */

#include "network_data_params.h"


/**  Activations Section  ****************************************************/
ai_handle g_network_activations_table[1 + 2] = {
  AI_HANDLE_PTR(AI_MAGIC_MARKER),
  AI_HANDLE_PTR(NULL),
  AI_HANDLE_PTR(AI_MAGIC_MARKER),
};




/**  Weights Section  ********************************************************/
AI_ALIGNED(32)
const ai_u64 s_network_weights_array_u64[1537] = {
  0x4009fa9cbf57dfebU, 0xbfedd895bfd74291U, 0xbf9b789fbffd4c15U, 0x3f08e927beb21324U,
  0xbfcbca0e3fa4a396U, 0x3f0d9dc83e30e20aU, 0x4010219a3f2d885aU, 0x4084f5563f230a3eU,
  0x40269101bfe999feU, 0x40993896404a461dU, 0x405f7dc83fb33c1bU, 0xc09ce8a6c0858f3aU,
  0x3f43ac21c0468639U, 0xc04b6868406afebbU, 0x3f7a3f113fdf6e4fU, 0x4003e9bb3fa707ceU,
  0xbf86bc803fc8395dU, 0x3fe51c773f985bf8U, 0x3fa902093e1a89b5U, 0x3f5eca983f1e26e8U,
  0xbf603829bf490ca7U, 0xbf90ac0140477d39U, 0x3fba2b853f8cf7c3U, 0xbf8b8f073f237a14U,
  0xbda26873bfdfd0c9U, 0x402f74f83fb8eb0bU, 0xbffa26babfa182ddU, 0xbf74b2164009dbccU,
  0x403fa8ca3f363ba5U, 0xbe6f2389c03af3acU, 0x3fe59d623f92e607U, 0x4007d8f3bf8e1b39U,
  0xc024ecf23f8b28b3U, 0x3e5639a4bfe80da9U, 0xbf255ec4c03da5adU, 0xc01b1bfe3f0f2d06U,
  0x408f274fbf830f56U, 0x4026ea103fc0beafU, 0x3fa58c7cc0329931U, 0xbeb0343e3fa8f147U,
  0x4035b80dc04f2fbcU, 0xc059f0d5beaaec38U, 0x3f768ccbbfb3a1d6U, 0xbf15d4eac03d4468U,
  0x3f14c8c0bf9bff2cU, 0x4015d6a7403e298bU, 0xbfff06423ff66682U, 0xc00b5f00bfc56e20U,
  0x3f1164c63fc5ff37U, 0x3f82a64fbf5931d7U, 0x401dda584089ef71U, 0x3f62215dbebff7f0U,
  0xbfc9da8c406faa2bU, 0x3fbf5a64bf86291fU, 0x3fef61933f5cbae9U, 0xbfa9b241c00260f5U,
  0x4035c6193d5a446cU, 0xbf711c4340235193U, 0x404ca9e7c0009454U, 0x3f911cd3bffdd0f0U,
  0x3fb7484cbf7f20ddU, 0x3ffe3c673f992216U, 0x3e95f1a8403360c5U, 0xc05da8a0bfb407dfU,
  0xc02ed5e6c053cdb0U, 0xc03b371d3dbf9191U, 0x4002bdc5c05ce564U, 0xbfe0e4173fcc11e8U,
  0x404ff5bebed475beU, 0xbfc800f64069c29eU, 0xbf0d8012408e6325U, 0xc00daadfc044c530U,
  0x3ed14e01bece6d7eU, 0xc0388fd7408cddb6U, 0x40ab90f73ef4947eU, 0x3fa0b6e9401b4f04U,
  0x401a1018c001dc42U, 0xbe31e9c6401e13d8U, 0xbf259437bfe5d480U, 0x40628d80bf8017dfU,
  0xbfc1a2293f668c4fU, 0xbeb58ee74034a163U, 0x3d009c7bc048a2d9U, 0xc028de7b400dd1aaU,
  0xbfa7a2adc0519b68U, 0xbf83874c3f7ad121U, 0x4023658bc0884caeU, 0xbfd2342dbfac48e4U,
  0xbfcfc5cbbf011b0cU, 0x3f893dc33fb75282U, 0xbf80c0b84034c3ddU, 0x3efaa6b8bf80d782U,
  0xbfd46b07bff1e609U, 0x3fb3bd7dbed4a8adU, 0xbf69f823bf2b86f3U, 0x3f5de0abbfceaa93U,
  0x3f2b089abfab1c56U, 0x3f67099fc015836eU, 0x401a7af640396b38U, 0x3f0f7c6a3ea2fdfcU,
  0x4021f78dc06c562bU, 0xc00a3b37c035445eU, 0xbf04920ec06032b0U, 0x3e04e1763f6da16eU,
  0x3f2c463d40333342U, 0x3f7b4101bffed2d9U, 0xc01316c3c0a8e598U, 0xc0454cff402ccbc0U,
  0x3eae18623ec82848U, 0x403ed7eabe3bb344U, 0xbfd30ae8400b610cU, 0xbf088c2d402d26a1U,
  0xbfc899813f648824U, 0xbdcef6263f68c030U, 0xc049af963f7c6037U, 0xbfb49554beba721dU,
  0x406f9b9a3ff1bb24U, 0xbf454a31bfc3b06bU, 0xc0115309bf8466e9U, 0xbf0e015ac055c6ddU,
  0xbf50172340a9d4f4U, 0x3f4d57b33feae322U, 0x4077934340e55c35U, 0xc0243035bd72c3e5U,
  0x3ff63a85bed306c6U, 0x3f774fbdc014cf9aU, 0xbf8467b6bfa7263eU, 0x400763374051a196U,
  0x3f4a5eb4c0652a4fU, 0xc042c29a3ecf3852U, 0xc0a922ebbe58238eU, 0x40663fee40146be0U,
  0x40a54d813fc3d62cU, 0x4043af563fefbac8U, 0x404ad2dfbf212b4aU, 0xc008b02b4027d7d3U,
  0xbf5c8ca1be49a409U, 0x3fd50596c02e5328U, 0xbfd916193f8cb19aU, 0x3f549d2abd58dea1U,
  0xbcc08550beb98a5dU, 0xc06b63ff3ff0b666U, 0x3e7f5333c07513f5U, 0xc002c861bfa2f78fU,
  0x3f7e0753bf5cab6cU, 0xc012b692bf968b0dU, 0xbfa8a4c63f596662U, 0x4031148bc06460c4U,
  0xc05752e34057c86fU, 0x3f168884bfdd0b58U, 0x40312cf9bfe1321aU, 0xc01c98543fb5b3f8U,
  0x3e20ff303f9ed717U, 0x40362f0d3f63bb7dU, 0x3f51e8e23fe6032aU, 0x3fb8c7503f4b4201U,
  0xbfe2cb59bf15455eU, 0x4026064bc00a1c84U, 0x3ef8c1873fc5b3b5U, 0xbf84be1c404ece05U,
  0x3f10a5763ed2926bU, 0x4011e7fc404ef3d4U, 0xc032a3a7bf41e49cU, 0xc040f0af3f904dc9U,
  0xbf7d61bf401acaf6U, 0xbf72e2bc400313a9U, 0x3f6d2c3b4064191cU, 0x4020ddefc013e91eU,
  0xc048beb240079941U, 0x3f577d1dc0ac0246U, 0xc0518e46bf276cd5U, 0xc02e15efc0e27134U,
  0x3f62a63f40616279U, 0x3db92e92404747e0U, 0xbdb0176cbfa500d8U, 0xbfc66956bfa4eb57U,
  0xc01ca692bfb2a3e6U, 0xbe6506e9bfe11b83U, 0x401d9bbb3fdd8f2cU, 0xbf29b7c540268c7fU,
  0xbfbbe4434010661cU, 0xbf25e03f4010ea4cU, 0x405db26440a40f3fU, 0x4005d396405b5c17U,
  0x3fabc7bfbf88f4fcU, 0xc05f7d60409802dbU, 0x3efda0c3bff4978cU, 0xbf8d3e53bf8c8479U,
  0x40184992c0016aebU, 0xc05a800f3faabe7fU, 0xbf1cdaf2407443d1U, 0xbf6ae6d3bfacb7aaU,
  0x4009521840177679U, 0x4081d2823fc57e51U, 0x3f062e6dc03dab82U, 0xbf11adb2c032fcc4U,
  0x40175a174000d592U, 0xbf3d122fbf3c5a63U, 0x405a60504048adc4U, 0x401eab88401be641U,
  0x3ffdfa834048d4c6U, 0xc06294f6402a3ce8U, 0xbfa1326fc006f57eU, 0x3fe46ff4c0274d27U,
  0xc089d9cd40308732U, 0xbfa945f6c01409d5U, 0xbf6fd6073f8f9e3cU, 0xc01851563e44dda7U,
  0x3f716dd83fbbf144U, 0x4037a5213fa8a24aU, 0xc03e620abff503e1U, 0x404132e43ee3f28aU,
  0xbec3e84cbea0bddbU, 0xbfc09c16c0175f8dU, 0xbf5b07e6401dbd73U, 0x3d512388bf6f7d67U,
  0x405abacfbfc142e6U, 0xbfdb67ba3f36ff59U, 0xc08b8c6ac04dc123U, 0xbe7870253fb53c4fU,
  0xbf9faeaec009817fU, 0x3fbad33d401438a1U, 0xbd296c43bc888a24U, 0xbfd5b5c5c05985ebU,
  0x406c6c03bf597adeU, 0xc00e744f401d3538U, 0xc072ae6b4023eb91U, 0xbfc51f63c0599d88U,
  0x3fd04661bfb0d7f9U, 0x3fe8e73dc01d5ff1U, 0xbfa22a08405231e4U, 0x3e5d7b9a3ed8f495U,
  0x401321c8bfbf6761U, 0xc041f7bb4039e1f9U, 0xbf29b7f1bf29d632U, 0xc04ed4723fe51341U,
  0x3f636ebcbf181f55U, 0xbf2c6cd8401d120aU, 0x3ffe7a1e406cbeb9U, 0x3fd787713ef87e5eU,
  0x3febe67bc08b7a64U, 0xc088a2853fe01a34U, 0xbfee07dc405a46c7U, 0x3fc2fa2fc068aa6eU,
  0x400bdaf740301652U, 0x3ea0f32c40271d58U, 0xbfb51d0ac007733dU, 0xc07eb43b401d1e1eU,
  0x404c2fe3c011fd49U, 0xbcf141d63fa1076fU, 0xbfdc356a3fe6a539U, 0x40559d0d3fd748a8U,
  0x3fb337393d13db83U, 0xc014ba42bf1f4729U, 0xbfdf301e40a53b77U, 0xc01a850a40566320U,
  0x40142e713fffaa84U, 0xbeb06e92409d6992U, 0x3fc2fd183d3d957fU, 0xc02234da40138873U,
  0x3ffa3128c022ba83U, 0xbf0c457840391e30U, 0x3feac2423f8c471bU, 0x3fa3dd2cbead5e30U,
  0x3f5950cbc080966eU, 0xc04f4ff1bfd3e51cU, 0x406b69863f697eb4U, 0x3ef2c979bfae7680U,
  0xbfcc387b3edeeacfU, 0x3f912c3ebfa27bd1U, 0x401fed5e40238d5eU, 0xbf028ee8c0a0b78cU,
  0xc0953bf840895af8U, 0x3f6316cabe9d2204U, 0x4059175a4064e653U, 0x3ffbfe9e3f1bdf45U,
  0xbe0109963f70f742U, 0xbf9b31da3f08a254U, 0xbe96f9973ffeda9eU, 0xbf117281bef586ccU,
  0xbf50addabe41723dU, 0xc0058958c00be40fU, 0x3d2398f4c00a9d37U, 0xbfe5cd3d3f28f166U,
  0xbf997bb0bf82fa1cU, 0xbfb3fbdc3e3144beU, 0x3dca131f3fbe2c5cU, 0x3e0684a1c00b040dU,
  0x3f94dff040a56670U, 0x4093b18fc06763e3U, 0x3e201fe84108b462U, 0x402b9adc3fac9edcU,
  0x40283ad9bef4421eU, 0x404e9e7bbfa1fc2aU, 0xbe78c0f54059d2e1U, 0x3fd26cd33cc78222U,
  0xc08ec8bcc0687c44U, 0xc08db3e8bf5c51a2U, 0x408c1ba53fb00b4fU, 0xbf28dd9440594fe5U,
  0x3fb28485bf9a54f4U, 0x40224384be96ffffU, 0xbf6b6eb63f9efbfbU, 0x40889da43f18cbcbU,
  0x3f0ce404c01d1778U, 0x4082ce843fa46c26U, 0xbf0f67c2bf7d38ccU, 0x405173083f974b82U,
  0x3ec00217bfa084a8U, 0xc0349635bf0cbf0dU, 0x3f81e6f0bf211d32U, 0xbf76a43abf40340bU,
  0x4002be81c038d0e9U, 0x404a3e40bf97c942U, 0xc0123f2d3fae16cbU, 0xbd92de2040263f96U,
  0xbfa91647400e61e5U, 0xc004837c400df2a5U, 0xbf805beb3d5ffea6U, 0xbe16feae3ffe4400U,
  0x3ed8fc72bfcaa1efU, 0x3f9079e63f5aaeafU, 0x403a3af1bf4cbe9eU, 0xbfa0b92c4043e071U,
  0x3fa0f03a401c048aU, 0x40656398c0454001U, 0xc0876cbabfedb490U, 0x401776904073b370U,
  0x406dd083c03d7445U, 0xbfb0135c402d6f55U, 0xbf24729f402f9593U, 0x3f86c080bf3fac64U,
  0x408494723f8b79fbU, 0x404aaca6bedd167fU, 0x401792633edc52b8U, 0x3e44705bc0607622U,
  0xbffb04c2401bcf57U, 0xbfff1357c051ac52U, 0xbf4713733f68b991U, 0x3d7394df3e4df62fU,
  0x406d91b8c0660a77U, 0x4088bdd1405a896fU, 0xc08117f3c0640993U, 0xbe8ce92cc04e18d4U,
  0x403488f53f35c6ccU, 0xbff9f2363f80cde8U, 0x3ef95b763fe5f6fcU, 0x3fdd14ac3fa3d4f4U,
  0x4029cf743ee85d66U, 0xc046cb52bf80b4b7U, 0xbf1c060cbe882dd7U, 0x3fb6e1113ff445dcU,
  0xbfb3417e3fff8a80U, 0xbf350ffebfca974bU, 0xbe36dba8bfbb7831U, 0x3fa152513f98f10dU,
  0xbfef214e3fd1363aU, 0xbfc16380bf2baf68U, 0x40687a9fbf02c50dU, 0xc00012353f780c82U,
  0x3ff821653f8e764dU, 0xbf26f250405cdfcdU, 0xc03cd7b9c001c3d0U, 0x3fe5f93bc0410043U,
  0x3f9fda7040108023U, 0xbf70bd3bc003cb56U, 0x4055a2013ffce1baU, 0xc017adcdbf9b1cb1U,
  0x3fb50a50c01b143aU, 0xbff45685bfc07438U, 0x3d2a7814bfb00d78U, 0x400d46c6bff294ceU,
  0xbf4f8a733fc16b7dU, 0x3fd308c4c0852070U, 0x3ee142893fb925f9U, 0xc0056d0ec00536ceU,
  0x3fcd5a553e263b42U, 0x3fd2430dbf7fc1d7U, 0xbf278e123eb2d06eU, 0xbf9990273fe8bd8eU,
  0xbfaa0541404ace6aU, 0xc022c25c3ff84520U, 0x4025d1bf4015d7cbU, 0xbe82014e3eb6633fU,
  0x3f88601dbfdfa6c1U, 0x3fecc438bf6f439dU, 0xc01dc81dbfee01d2U, 0x3dfd5c2d3d775bd4U,
  0x3ec7b09ec0028569U, 0x3fc577093fa325e4U, 0xbfa74eafc0118cb1U, 0x3fa8bea73fe5322bU,
  0x40160f0a3e9c7208U, 0xc0290dd13fe61e48U, 0x3ffe5315c03804a3U, 0xbfb5c7a6bf5ec5a5U,
  0x3de9902a402afef4U, 0xbf7964763ed066b8U, 0x3fb6febbbf53c274U, 0xc06c9915bf9b886fU,
  0xc05120eebef4c2a5U, 0xbed9d701c00c1321U, 0x3e0f104cbfe630aaU, 0x40141eac3e2ddda7U,
  0x4025ec13c04b5b9fU, 0xbf99f26e3edefa10U, 0xbfc0142d3e12c7eeU, 0x4043ee523fd0b544U,
  0xc018d3f3c0461857U, 0xc004326f406cbc03U, 0xbf21bacdbf4909c9U, 0xc01aace63e2efa25U,
  0xbf174ea53f6b348cU, 0x3fbd12aabec44866U, 0xc089b0703fdb77f4U, 0x3f3fbbbcbfd041ddU,
  0xbfd31051c0368465U, 0x4031e34ec0656fabU, 0x401d49a14044b5f3U, 0x403de408bea602d9U,
  0xc012d49b3fcf71b5U, 0xc0543b25bf1f9121U, 0xc01e1cc9c06cac08U, 0xbf4d892ec0132489U,
  0xc01b740dbf7fae2aU, 0x3fe595d23fa997e7U, 0xc06395fa3f87368cU, 0xbfff70a5bfb5fe18U,
  0xc0d6161c4061c1f1U, 0xbfbe6fce40641761U, 0x4076a84d408d866cU, 0x40467827bfc4b793U,
  0xbfbe40f7c087377eU, 0xbfa817e54076de26U, 0x3fe0f0cebd1d3421U, 0x405e2072c0ad910dU,
  0x401668ba4050f318U, 0x3f26c334bf78b497U, 0xbf9b25b9c092bd55U, 0x407fe36abf4fe799U,
  0xc07afe38c07dbdf7U, 0x3fb47cf7c08b3ff6U, 0x4084e9d1c04ccfd4U, 0x400eea5d409cff0aU,
  0x40b07451c0721843U, 0xc0a2764e3f72894eU, 0xbf5939dec0923b0fU, 0xc025d43dc089f33cU,
  0xc07a5702402f1c21U, 0xbffa67d8c0d2d8f0U, 0xc04e5e99bf3d7b13U, 0xc0d75f9a3ff4fa15U,
  0x40c916acc090de10U, 0x3e53615ec066b302U, 0x4062e76b4088d150U, 0x4054d0023faba9b1U,
  0xc0e024143ef0edbaU, 0xc043633bbc6d9098U, 0xbe840f7040cf690cU, 0xc037bec6c070f8fbU,
  0x3fc645e540cb1d79U, 0xc03c32c5c0b755f6U, 0x4038b4d6c10bfc60U, 0x4091452e3fc7e36dU,
  0x3f0449d03fd87e70U, 0x3d8747fabf99d3a6U, 0xbf1caa4ec0a1b6c0U, 0xc0d586c7bf05b494U,
  0xc1220cde40d123c1U, 0xc091d4c03cb14ae7U, 0xbfea7de240232ee2U, 0xc0e781efc0991999U,
  0xc07c7e90bf51257aU, 0xbf820c63bfa6282aU, 0x3f59a4f33fed2bfcU, 0x404cff34c03eb87dU,
  0x40c3bafbbee4d7b1U, 0x3fa7bfd83ffda4e2U, 0x3fabe7d240fec734U, 0x3d95b373bf9a58feU,
  0xbed26e8dbe049496U, 0x3d1f12113e83477dU, 0x3e292f50bd1bd9c9U, 0x3dd9d8cdbdcda762U,
  0xbd868e72be3e46f1U, 0xbebb94b53e95f67bU, 0xbc4688ecbe46fb08U, 0xbeeabfcb3e1bff3cU,
  0x3d07d1173e9f06f6U, 0x3e519ce0bc76ec28U, 0x3d6bb3643eba4e88U, 0x3e958408be94b492U,
  0xbd8a544d3e99d7c3U, 0xbe716669bed6b1fdU, 0x3ec373a6be82e488U, 0xbf158ca0becb1778U,
  0x3bc2743ebd8ea3c2U, 0x3e3bc695beb67aa0U, 0x3cd370203d66c174U, 0x3e12b920bea38c61U,
  0xbe1c44163c75323cU, 0x3e75b45e3d0072e9U, 0x3915d7283ea0aedaU, 0xbd1f6824be991e07U,
  0xbc61b61c3ecba686U, 0x3d211079be97feceU, 0xbebc473b3ea1c1f4U, 0xbe148f43bed086a0U,
  0xbe50e835be1f700dU, 0xbdca3f79be9bd330U, 0x3b31c2d83da45133U, 0xbe1d87253e8e0d82U,
  0xbe046e10bdd45620U, 0x3eb4bca4be9181d5U, 0x3ed539bcbe8f5ee3U, 0x3e557a15be466241U,
  0x3e34bcc8be9fb86fU, 0x3ea8d6f03ec0652eU, 0x3d80f306bded8812U, 0x3ebea5f4be76397fU,
  0x3d9eccabbe19d4ddU, 0xbec946b13c3494beU, 0xbea9ec55be91af72U, 0x3ede52753e023441U,
  0xbe46f113be81fef7U, 0x3e039b823de7bd4dU, 0xbd3e8d4dbe57a83eU, 0xbe479eaabe4770c1U,
  0x3d731ea3be132276U, 0x3d44cc18bea8a22aU, 0x3da37e3dbe84a24cU, 0x3d9ea7093e23584dU,
  0xbe62a432be7d4584U, 0x3e3483323ea335eeU, 0xbe9b68703ecbbce7U, 0xbee8d2dbbd6311d3U,
  0x3ebe85b53eeeb96eU, 0xbed2a6b73e8881b1U, 0x3c469e0c3eaee87dU, 0xbeb2265c3ee9e3aeU,
  0x3ed7018fbdfbbea1U, 0x3eba0ef13e2ad3f0U, 0x3ef81c5abd95d875U, 0x3e85339dbe5d2f46U,
  0x3ce844a8bf0ab1dbU, 0xbee52e43be076324U, 0xbee197cebe79fa4cU, 0x3d1b718cbe960704U,
  0x3e45d24abdf8cefdU, 0x3e9f1de7be0909dbU, 0x3e611dcabe860d81U, 0x3db7cc2d3e37feadU,
  0x3ec694e33e59a00aU, 0x3c8bcea9beaefd25U, 0xbd7ad4543e728cb8U, 0x3e0beb353e244965U,
  0x3e04427a3e260e3fU, 0x3e4062efbe2bd7b2U, 0xbe1810a83e37e97dU, 0xbe6f94c7be4d88c1U,
  0xbe4601373dd50079U, 0xbe8a4801bece8011U, 0xbec0b046bde435ccU, 0xbea187653d819015U,
  0x3dcf5b873dc6e3b6U, 0x3e00946fbee48d8aU, 0xbe702887be28700dU, 0xbd95e90c3e17fd9cU,
  0x3e5f3d213e08363aU, 0xbeffab5b3db07b4bU, 0x3d954e573e8b5c92U, 0xbece844dbd5c23b7U,
  0x3e828a2fbe8804b4U, 0xbdc159cbbe924ee3U, 0x3ead3839bd56c74bU, 0x3d22848bbe57ba7eU,
  0xbdbbd27d3ec3864bU, 0x3eab00ff3eb8063aU, 0x3c9a1505bda1a5d7U, 0x3e6a8d4bbcf3ae14U,
  0x3d29294e3c9ec510U, 0xbe284bb4bdba996fU, 0x3c9952f6bd40b5ddU, 0x3e4694143e4aec94U,
  0x3d55a550becd4789U, 0x3d806fcbbea19421U, 0x3e974f433d4f7dddU, 0x3def6a1cbe9c94e9U,
  0xbd99f4923e00af7aU, 0x3d57169fbe5680d5U, 0x3e55ca16bd917a01U, 0x3e5c7d79bdf7e324U,
  0x3e0b6b5fbdd980b4U, 0xbe9f4561bd8e5fc1U, 0x3c02bd35be97f786U, 0x3e6252ef3df648fcU,
  0xbee9b5ec3eaa62a4U, 0xbe3fc75ebebce3f7U, 0xbd8c86913d031bb5U, 0x3e211466bdba97f5U,
  0x3e713981bbdc96b7U, 0xbcbfbf723b9f5f6cU, 0x3dd4fe013c2c41efU, 0x3e966bad3d6f75e1U,
  0xbe99214d3e8de495U, 0x3e82bc403e11f7eaU, 0xbe89bac53ee95791U, 0xbeb08ff83e5efea8U,
  0x3dfc8cb13dd00deaU, 0xbe5916cf3c95ae06U, 0x3dee39e83e411e52U, 0x3e0bc41a3e5d67a3U,
  0x3e5ffb8a3b658423U, 0x3e8c2dae3dcb3b51U, 0x3dc67006be6025f8U, 0x3eb6b10e3e48c8e9U,
  0x3e26a16a3e6c97feU, 0x3becfb333dcdf0d4U, 0xbd8d58e3bcef3aeaU, 0xbe63455abd8b8b6dU,
  0xbe011a983eccb1aaU, 0xbe9cf426bb28c73fU, 0x3dec8c9d3e361a1eU, 0x3e7c2669be6886eaU,
  0xbdd823fc3e8418a1U, 0x3cfa3c91be9d1acaU, 0x3e87559a3d0b3d5dU, 0xbdf089463e426cc4U,
  0xbd343fe9bea81fd9U, 0xbdb5ccb93eb52863U, 0xbe2ca0353e945906U, 0xbc6bfa0fbe9c8b7dU,
  0x3e75f4bd3d0fc2b4U, 0xbeae2087bdd9804cU, 0xbec5940a3e84df7fU, 0xbe5fdf6bbe457cc9U,
  0x3e119c5dbe8f18e3U, 0x3e040e6fbda9c8ceU, 0x3e7a22f83e46da97U, 0x3de65a2b3ddca2d2U,
  0xbe1829583e1552e8U, 0xbcf14e23bd9b0eafU, 0x3de6ac66bdacece1U, 0x3da430083ed072aeU,
  0xbe0585ae3e3c4aeeU, 0x3e6492753d969acdU, 0x3e63bb123ea260a4U, 0x3e57694cbcdf3b3bU,
  0x3d92b5ad3e54e5d1U, 0xbd1b4bcf3d453840U, 0xbd383f47be1f1912U, 0x3e10f5653d171affU,
  0x3e84955cbbb3a972U, 0xbe36a04ebdc73019U, 0x3e234688bc0c02faU, 0x3deb92a1bca54b7cU,
  0xbdbb16333c70cf63U, 0xbe581039be3f0ee6U, 0x3e11c2a8be8cb010U, 0xbe01f3993c9b882fU,
  0xbdfe682b3ea35de0U, 0xbe0257ad3d213528U, 0xbc92d1edbafe7458U, 0x3e38818a3da4a29aU,
  0xbc8638593df38ed8U, 0x3dbe24ec3e10c5e9U, 0x3e222d913d904518U, 0x3e3e69d23e5d1a7aU,
  0xbe4a6adabce57c04U, 0x3e3664f03dc953c0U, 0x3e0d571ebd87530eU, 0xbca03bf0be19a96aU,
  0x3e8e41b0bdf31be0U, 0x3c38e1b5bdb990e7U, 0xbd807e48bcd09108U, 0xbe20f13e3e3715eeU,
  0xbe2c8c313d39527aU, 0xbd951a563e6fcae7U, 0x3e07cf04be501403U, 0x3e1f06123e179b4aU,
  0xbe9adc07bd275dfbU, 0x3d1d8cf1be0b7983U, 0x3dbf4987bd8eb96fU, 0xbe242532bdf932dcU,
  0xbb8dcca03e9ff3d5U, 0x3d8c0c3b3d7653d2U, 0x3df5b0b83e0edc1bU, 0x3de685d3be92852aU,
  0xbd100c013e342522U, 0x3e2a6438be7018f0U, 0x3d24fe4fbd446097U, 0xbe9bb55f3d533a8bU,
  0x3e7c544dbd59abe3U, 0x3d65ab89bdfb056dU, 0xbdda36c1bdf55841U, 0xbe83297f3e2cf0bfU,
  0xbd091996bbde976dU, 0xbaf4f89dbe7935eaU, 0xbe4ab97abe5ebbd5U, 0x3dc8f0b53e763fb2U,
  0x3e4dbd0c3dee4487U, 0xbe50c68cbe005854U, 0x3e7db76c3d3892d2U, 0xbe3609863e87d157U,
  0x3e5ee47f3dcadd9eU, 0xbe40d49e3ddf4aa0U, 0x3d9136ad3e2b432dU, 0xbe4627183e92f67bU,
  0xbd55ba38be8e70e8U, 0x3e15318e3ea0c954U, 0x3e9f5f1d3c2bc8feU, 0x3bc717b4bd76a1b3U,
  0x3e2e5ec73e2b1400U, 0xbea45a603e511a3bU, 0xbdd66f273e3b6d15U, 0xbe67c930bdb2ed9cU,
  0x3e736f193db62004U, 0xbda7da3d3da7adf6U, 0xbcd67bfabe0b2d93U, 0xbce665953e645990U,
  0xbe821bc5beb3b60aU, 0xbe4275d33e1e88b3U, 0x3e2c6432bdf3b930U, 0xbdf06d973e6f988cU,
  0xbe94b5373ed53c66U, 0xbcc036493e80f961U, 0x3e374ba7be06962aU, 0x3def04013cd574fcU,
  0x3dd0101ebe45cd59U, 0xbb8e1b08be2e6c07U, 0x3eaa5c89be8b93aeU, 0x3d4fa297bd4328feU,
  0xbd50b7dc3dd45f93U, 0xbdc6f6b53e453d48U, 0xbe992f943e80c366U, 0x3e366a0abdf10efcU,
  0xbedb0bd8be604033U, 0x3e00ebd7be28d96fU, 0xbde72d5d3da51b21U, 0x3ecc0de3bd74b7f8U,
  0xbeebfae8be0ec806U, 0x3cb86d7e3e002295U, 0xbe5432ea3e50c933U, 0x3e5caf79bea040f8U,
  0x3ee235eabdcb827bU, 0xbdd730e2be880298U, 0x3ece7453be66010bU, 0xbdc600663e894a05U,
  0x3db7a749bebf9cbaU, 0x3ebf4451bdd226c4U, 0x3efd6ffcbd6cec42U, 0x3d7c65abbe01d500U,
  0x3e1bd7cb3e40536bU, 0xbe61f8a83c44fa8cU, 0x3e8ce0d5be3e4147U, 0x3e88e33cbdee840fU,
  0x3d065c0abe486d14U, 0x3ea9db28be9368f3U, 0x3d10054ebeac6817U, 0x3e896a9e3e2a448dU,
  0xbe513a43bdd4ca5aU, 0x3da63c84be697777U, 0x3f015003ba1b09b7U, 0x3e51205a3e9c189cU,
  0xbe94ca863e2d8271U, 0xbe1bd5253e6fa8baU, 0xbd0a50cebe8118feU, 0xbe91db32be62ee98U,
  0x3de15c6f3d8f4aeeU, 0xbe653b823e565df5U, 0xbe40a639be494c6cU, 0x3e976e1a3db75e30U,
  0x3b0756b13e5e3de6U, 0x3e5629973e165cf3U, 0xbe1663d4bdc88fa8U, 0x3d5169373d5df9a5U,
  0xbe43101d3dff4b41U, 0x3e90de9cbdbfe453U, 0x3e0b0f363ea777adU, 0xbd48c65ebe8d9d65U,
  0x3d6ed2823e130ba5U, 0x3df7e918bd3df09cU, 0x3df64fc5bde7f02eU, 0xbd4f0127be5db649U,
  0x3e2937a9bd867989U, 0x3d439b8cbdb034abU, 0x3e80f9f2bd689b69U, 0x3d6f1f6ebd9454ffU,
  0x3e43c2c33cbe978dU, 0xbe77c793bdf24fa5U, 0xbe9d20c23e6e5e10U, 0x3e846b0e3e857fa5U,
  0xbd99af3cbe1c3e95U, 0xbe377e5cbe0aa01cU, 0x3db3f6613dbb536bU, 0x3e6d53e1be00d0d9U,
  0x3ebf04343ea79591U, 0xbda1c595be8d2c39U, 0xbeb815343e4b54cbU, 0xbda7c287be997ffcU,
  0xbeab25503e99f381U, 0xbecc87cc3e8f032aU, 0x3ddfb734be9b95a1U, 0xbe6f70b83e873cddU,
  0xbe5539d73d180f84U, 0x3e303f75bea4b854U, 0xbd9bfa5a3dbe2947U, 0xbee4c6d2bd505babU,
  0x3e0bcb38be9ab955U, 0xbeb59dbc3e74b7c0U, 0xbdde1effbd92712bU, 0x3dd56644bebae741U,
  0x3ebe32a6be10de0eU, 0x3c6091c5bea716fdU, 0x3ea9fc603ddb2422U, 0x3e0e617a3e9d481dU,
  0xbe4f599d3e242b07U, 0x3e8f912d3e4db072U, 0x3e6bcc493e33d01bU, 0xbec51b4cbeb7e3ebU,
  0xbe89de5b3e9a099cU, 0xbdadcd623d60eb97U, 0x3c8fc8093e826704U, 0xbec3e600be843269U,
  0x3d1649bdbe455328U, 0xbdaa79f63e018b34U, 0xbde4d3a3bce78cecU, 0xbe55ce663e65d861U,
  0x3e90be15bd7b6299U, 0xbe1a99333e2b42bdU, 0xbb03d312be5de6ccU, 0xbea579dabd78b404U,
  0xbf1105833ebfb686U, 0xbd392224bdb70898U, 0x3cbfffb2bea346c5U, 0xbee7910d3ebcb307U,
  0x3f018769be8f03bbU, 0xbe0e0f19bf0680dbU, 0x3edad389bda2541fU, 0xbf04d8cebeb7e655U,
  0xbef448dd3e432334U, 0x3ebfcd8dbea78f05U, 0xbde07debbd08ab57U, 0xbe30ac223e2ac396U,
  0xbe5622d13d8a50ecU, 0xbefa45fbbe4d6992U, 0xbf00df30be5ad5e4U, 0xbf3c6d56be98acbfU,
  0xbe087108bdbe693eU, 0xbefd7f14bec83fabU, 0xbf06a439bdc47d5cU, 0xbf5b4a28bed5b8f7U,
  0x3f114bcb3e0b0bfdU, 0x3d0a2e313ee63ad8U, 0x3e1f2824bd9fec3bU, 0x3dfee6a63ea393d2U,
  0xbe24141cbec7a91dU, 0x3eaa95ec3f2df026U, 0xbe85e58dbe6e13c1U, 0xbeec5a4c3e1e446fU,
  0xbc9319633ef8fdccU, 0x3e9dc5adbe07fc38U, 0x3e56a080bde8eb05U, 0x3df925c73e37a596U,
  0xbd801bb2bd81a1cfU, 0x3e821256bebb22b9U, 0x3dcafa6c3e7b89b6U, 0x3d8ef020bdb0a148U,
  0x3eee7a9abd470f06U, 0x3c2505b2be93dcd3U, 0x3e1d92fe3ed9138eU, 0xbd91c549be6755d3U,
  0x3f018d523c6fbb9dU, 0xbdcf48313d895725U, 0xbd9d88aabe746524U, 0x3e6fb5d13e8197faU,
  0xbeaf07cc3e9d2d21U, 0x3dc6e3b03f05aba5U, 0x3e8588e33dc9e3f9U, 0x3ee5ffb93e988e7dU,
  0x3e9e1278bec7500dU, 0x3edc02f23d7571f9U, 0xbe8ddd76be99d83bU, 0xbd5a7efcbe8efe93U,
  0x3eb51c5b3e68a8ecU, 0x3c9b3dd33d4e4584U, 0x3eb6b370be75479cU, 0x3e326d1dbedcdb2aU,
  0x3da20674be937836U, 0x3ece5033be49a58bU, 0xbe64a56f3e3c78baU, 0xbe4461e13ecfa2dfU,
  0x3e748a1a3dd43801U, 0x3ec478443e33bd9dU, 0x3e2888733d30441bU, 0xbeeef7143e6bcb22U,
  0x3eb4b9f03dadb96bU, 0xbe466ddcbe4b037cU, 0x3ec5906cbd8e8d69U, 0xbe251b993e5ac469U,
  0x3e96c33cbe86246fU, 0xbe45afe2be3f774aU, 0xbdc0aff13d850f18U, 0x3e87a1473eb99735U,
  0x3eaa82d2bd934a42U, 0x3eaf4d07bd45b660U, 0x3e907b6bbd074391U, 0x3e14e2453c0223e1U,
  0xbe7138f43e95b39fU, 0x3e8a8a7c3e455834U, 0xbe131cf13e1e4229U, 0xbd3e428bbe6c2712U,
  0xbc90a6813ea7cf03U, 0x3d9a10a63d5a3718U, 0x3ead75da3d389fc0U, 0xbd7daa2d3e246cd3U,
  0x3e8cbc2abcef1231U, 0xbe8f532fbebd7e9dU, 0x3e5ba6373e972adeU, 0xbcc3bfcc3da1e7bbU,
  0xbd1535febdf27f80U, 0xbe813a1d3c0f298dU, 0x3e7921f43ea8a8f2U, 0x3e8c78c93e79ef3aU,
  0x3e673d323df450b3U, 0x3c217631be93ec70U, 0xbe705dc3be523f9bU, 0x3e2950d73d01d395U,
  0xbef11d343e5d2f40U, 0x3e9c75873e971bf3U, 0x3ecf8c733ec27981U, 0xbd98c77bbeca4cc5U,
  0x3e3cac2c3d932473U, 0x3a9c1af23ed45e46U, 0x3ea6008db9c27327U, 0xbeb8a853bed0f5a1U,
  0xbefd20aebd97be60U, 0xbe33b5333e18435aU, 0x3e5d03c5bd545b00U, 0xbecb29ccbc2781aaU,
  0xbeb3754f3eb63329U, 0xbe00f683bf3d4e3aU, 0xbe245eecbeb249b4U, 0xbf0ebb033ecc3217U,
  0xbec4e9c9beb1bae7U, 0xbef76b1dbeecc61cU, 0xbedccb55bdffe01fU, 0xbe8ccd19bea5d6f3U,
  0xbd1bd5f53e5b0c62U, 0x3d41a93ebd5f036fU, 0x3ebd8d2d3e89df6aU, 0xbe1b7eaa3dc31c50U,
  0x3e516de1be04eb51U, 0x3ef12b3dbec9867fU, 0x3dadec313d8a17f8U, 0xbde6f2d73dd5d509U,
  0x3ea0024d3bb0c3bcU, 0x3e97faefbd1ed9f4U, 0xbe9332163e1ab70eU, 0x3dac4001bf013741U,
  0x3e1e46e43e40c523U, 0xbe1745acbe25798bU, 0x3d372a303e0bcaf4U, 0x3e5a06ae3e75eed9U,
  0x3e407336bc86ff3fU, 0xbd992dbc3e376f5eU, 0x3eae33f63d7bf910U, 0x3d418b8ebe61cbdeU,
  0xbdb64256be1ba0c8U, 0x3d2c768fbd87349fU, 0xbd3ddc203ea1ee30U, 0x3c049cd1be0dad7fU,
  0x3e631c983dec3398U, 0x3dde7457bd9607f9U, 0x3d13f45a3db41092U, 0x3db317873d3bf781U,
  0xbd108d35be8cb560U, 0xbeadf7b63e71a949U, 0x3e4b90b6be053e14U, 0x3e76ce003e104327U,
  0x3cd8b5fb3dab77fdU, 0x3d167f94be539619U, 0xbe1f3680bd9f2908U, 0xbdbcbb71be87cd0cU,
  0x3e3a4290be898d87U, 0x3e4d8d933d8260f5U, 0xbcf3e5c0be632227U, 0x3d825004be4524e9U,
  0xbd9ad1b93e60dd1eU, 0xbdc9aef5bd194a27U, 0xbdbd87e33ea7db84U, 0xbe9ca905be8a59abU,
  0xbe9ff836be5603c5U, 0xbd0ed0f1be440d23U, 0xbdde24cabd187ac8U, 0x3dbc12973e5a661bU,
  0x3e8153bbbe6100b3U, 0xbd892ad13dc7ac38U, 0xbe9efb4b3e60642fU, 0x3c953d4ebe98339bU,
  0xbe25f7db3e130a64U, 0xbd5987a7be20fda0U, 0x3ea0e0713d838a6eU, 0xbe974ec63d2828d3U,
  0x3e42c05a3c37888cU, 0x3e20c231be8f12c1U, 0xbe4ae3c63cf73603U, 0xbeafcf4d3e2503a8U,
  0x3e94617fbe596cddU, 0x3e95ea2fbd1b214eU, 0xbe341053be92b7a1U, 0xbeaa6deabe110debU,
  0xbe41cd11bd85b924U, 0xbd9346b73dd34d3cU, 0x3e16a8463e4bbfc4U, 0xbde55e1fbe83be91U,
  0xbe245a473d8d5d38U, 0x3ddd060fbdf79ce2U, 0xbe079f0bbe4c0eb4U, 0x3e8b3b13bdb5609cU,
  0x3e0d29653e832602U, 0xbe408d62be45c823U, 0x3e4b942bbe147b5fU, 0xbddde5cbbdb1d707U,
  0x3e7b43723e5cbfc3U, 0xbed730ccbea9b261U, 0x3e7609b53ea590fcU, 0xbe9843fcbe8134dfU,
  0xbe626834bb7178c7U, 0xbea507c43bdb7047U, 0x3d7810afbe8d9da0U, 0xbd6b880d3d388303U,
  0xbe8d1eaa3e88b600U, 0x3e6406693e21f995U, 0xbd0f34623e85f41dU, 0x3e54a1c93e53a0c1U,
  0x3de94db1be9d7dc8U, 0x3e4df5dabe8f525dU, 0x3d407a623e19988dU, 0x3d34ef9f3e124b3cU,
  0xbe5dc42bbe0c9fafU, 0xbc8b70c6be8a6744U, 0x3dc07de1bd4d759bU, 0xbe748b1bbcefb609U,
  0xbd0a92633e8ff2a1U, 0x3dbb36153e25b967U, 0xbd86e4493e254786U, 0xbe706e213ddb0e09U,
  0xbe57bb0c3ea9068eU, 0x3c1fb5f4bebbcd00U, 0xbe8567e23ea5ab6fU, 0xbd39e7c03dae1297U,
  0x3e00edb53de2b5c3U, 0xbe4bde913e4943b3U, 0xbe875463bec9065eU, 0x3c9a2e053e73d00eU,
  0xbe8f37d63e1658f1U, 0xbe9a7a93be3c860cU, 0x3e7d1bf8becde60dU, 0xbe6f0d88be83ac2cU,
  0xbec739a7be67d4c3U, 0x3efdc798bedf8518U, 0x3ebc48003d0de145U, 0xbeb9e2553eb11843U,
  0xbeece168bef50293U, 0x3deac6863e60bf57U, 0xbebbe6f03ec74021U, 0x3e45162d3eb1dd00U,
  0x3e75908abea65e3dU, 0x3e65b8573cf6c1a7U, 0x3eb0908f3ebf0900U, 0xbed5d6b2bec59d6cU,
  0xbe26a6f23e74c2c7U, 0x3e87c1a23e9bd857U, 0xbe4139653b9b15b6U, 0x3eaddfc3be4264adU,
  0x3e3dc2f63d758929U, 0xbedad0ad3eb094b6U, 0xbebc07e6bf09731aU, 0xbe1be2cd3eb606d6U,
  0xbec00c123eb1f05cU, 0x3ef3ed45bd560b8eU, 0xbe967a933de3f05cU, 0xbefad3eebd3c8752U,
  0x3efa7032be48216fU, 0xbf25fbeb3e1a1d83U, 0xbe0ba4893e377bf2U, 0x3f075c983e5fe3c7U,
  0xbeb075313e21bb81U, 0xbea4dd5fbe92ad9bU, 0x3d00fc413efef88cU, 0xbd05009b3c02c869U,
  0x3eed983c3e369893U, 0xbecb648e3ea521b1U, 0xbe846ff8be935289U, 0x3f26559abec41f53U,
  0x3e609cb6bf11460dU, 0xbe214300bead7ecdU, 0xbeb4c0babef78e23U, 0x3edb2aaebf0a8c5eU,
  0xbe806ca5bf1156f7U, 0xbe0c1e5f3e7ff212U, 0xbf07a8d43c04ac18U, 0x3e30c1a73e8c40c7U,
  0xbe8dbccb3e8b5843U, 0x3ebfd8f0bd9a80e1U, 0x3d6acec13e93c460U, 0xbec69275be6477d3U,
  0x3f035ce5bde1fa90U, 0x3ea4d8ddbe741ad7U, 0x3db627eebc5577b5U, 0x3d4ad8723e33dea4U,
  0xbe988b51be67148dU, 0xbf00feebbeac5e72U, 0xbe886f953bc8dcbdU, 0x3e92c6d33ebb228aU,
  0x3e377152bee1ef11U, 0xbcf1e8ac3ed28512U, 0xbea41d6d3ebc6c66U, 0xbe58894b3dde2d4bU,
  0xbd42aa383e986c72U, 0xbeb84cdf3e6a5438U, 0x3ec2738a3e96543fU, 0x3f121ed8be44c854U,
  0x3ed46ffb3ea64298U, 0xbe7b67a4bee506f7U, 0x3ecf63edbed32024U, 0x3f0a85e43e8f680bU,
  0x3f00f6473dfef45cU, 0x3e87d5ef3dcab481U, 0xbe4108a33ed0863bU, 0xbed572e3bd12d29cU,
  0x3e9ebe78be2ac851U, 0x3d57c30fbd7a6ae7U, 0xbd793034bf0f1648U, 0x3f2868b83ea57891U,
  0x3ea64d9fbecee925U, 0x3dc162c6be71a8a6U, 0x3ebb081f3eeebb99U, 0x3ed619103e42e04fU,
  0xbc1b22f3be8d335aU, 0x3e8d53123ef8e7e4U, 0x3df639803defb2ffU, 0xbea9e6c33ea57d9eU,
  0xbea2af023e782a67U, 0x3e6937cbbe93d637U, 0xbd70f429beaaa325U, 0x3ebadb66bdfd83a9U,
  0xbecb7d9dbc09d649U, 0x3cb1aeff3e4d8ac8U, 0x3eb1c09f3ef0090aU, 0xbdf679eabf066b00U,
  0xbd8c0d11bde7d5edU, 0xbde0f8843e9f321cU, 0x3e8219903e2d3b41U, 0x3e38dea23ede3ce5U,
  0x3ee3ac303dbe24ddU, 0xbea6bac4bccd2d49U, 0x3e7a8c8a3e74f44aU, 0x3e94a2b03e5c8ba7U,
  0xbd04fa5dbe5cd79cU, 0x3d5a0501be4dbc03U, 0x3ddcdc893e4dfe61U, 0xbe8da8e2be6889d4U,
  0x3d901835bd943b9aU, 0x3c6be9b13e8f5957U, 0x3e98d59e3df97779U, 0x3e11769bbe4afd8fU,
  0xbec1671bbe2d35f5U, 0x3e906b41bea607dbU, 0x3bb13e503e60e157U, 0x3ecb95a63db7562cU,
  0x3e26a5443d2db3fbU, 0x3e1dc587be0c0753U, 0x3e1896fb3e62598cU, 0xbe7a6d323e8866a3U,
  0x3e24ad19be7eaafcU, 0x3d5a7c4ebe9b4fc8U, 0xbdc596ddbd1df552U, 0x3b4c2bb63e863e33U,
  0xbbf12bb53e38939eU, 0x3e7875ea3e0fa1b8U, 0x3e679ef73ebb8423U, 0x3e63bd34bc7c9141U,
  0xbed5c8323f0e8db1U, 0x3e8eba18bc2c3e28U, 0x3e630be93da77157U, 0xbe15a9313e3b351aU,
  0xbecbd417be65b505U, 0xbe338f1ebe4b4c38U, 0xbe94c61abe841728U, 0xbee36d663e0a4846U,
  0x3e2e52fdbed5a0d1U, 0x3dcd3e21bdf4c92cU, 0xbec1e2cc3d07583aU, 0x3da88e883d0eb261U,
  0x3e95d7573e2b55f5U, 0xbc2a904dbcb1fa4bU, 0xbe70922dbe7deea1U, 0xbd965dedbdda64c5U,
  0x3e1a6e453cf68f27U, 0xbe6fd23d3e2b89d6U, 0x3ed90398bea98a27U, 0xbe3a37ba3e40214cU,
  0xbebe653a3eb70074U, 0xbedbc23cbf0aa221U, 0xbeaa66a13e582803U, 0x3dedc54a3e57b0feU,
  0xbed15df33e2902c6U, 0x3e1b6107be552739U, 0x3e97e6ac3e972df5U, 0xbea407e33e685372U,
  0x3deb93b4bc8c6b0fU, 0x3ec352c23e0ef581U, 0x3e0116743ed5206cU, 0x3e3fe527beae7d16U,
  0xbed9ec5e3e17adf7U, 0x3f072c263cf05561U, 0x3e7b9ba03e9425f1U, 0x3ea4843c3e311033U,
  0x3d1cc807bb2e9b80U, 0xbe0c46a7be861ec0U, 0x3dcaebc2bce7827cU, 0xbde932793e8b1f5bU,
  0x3ecad2933ea62a97U, 0x3d625b413eb59241U, 0x3cdcf2a53e94a2bcU, 0x3e582ba03ed38d88U,
  0xbdadc5243ec31afaU, 0xbd3c029b3dd2e40eU, 0x3ecea0b33cebcb88U, 0x3e88cd043e96bbc9U,
  0xbe8ab4143dfe476fU, 0xbe75ae00beabd8f2U, 0x3e97a5b0be9671ccU, 0xbe2b6d9fbe3685e5U,
  0x3e6e80e73eb59290U, 0x3dc1fa903ea5c732U, 0x3cce769c3dfdac22U, 0x3cbfe61c3e5693e3U,
  0x3db204b4bea48d23U, 0xbdc34adb3e6cc863U, 0xbda094a63d85e94dU, 0x3e2b1eb53e422ab5U,
  0xbd0c8b01be06ffc9U, 0x3d9077133e100e42U, 0xbe064772bd79df3aU, 0x3e1ddb7d3d5926d4U,
  0xbe918aaabd972908U, 0xbea58ae63e106362U, 0xbe2679423e844195U, 0x3eccb4273e125b70U,
  0xbdeb94dd3d99b732U, 0x3e6e4e783e0c1ec5U, 0xbec2d3623e8e69b3U, 0x3e99eed4be08f8e5U,
  0x3ea083ad3e7ad39aU, 0xbe8aee8b3d945997U, 0x3e44a4433ec67e3fU, 0xbcd0f62f3ee8ecdeU,
  0x3eeadefe3e8851b6U, 0xbdbddddf3edbcb37U, 0xbe9a4f40be8cbb93U, 0x3ef539b2be06b77bU,
  0x3d6f94fe3eda8ac6U, 0x3e5cac9ebe2e7dd4U, 0x3e6f4afebe517efdU, 0x3eebb260bdf1b5ffU,
  0x3e910266be57328dU, 0xbe9140b8bebe5d51U, 0x3e1f350dbeb510ceU, 0xbe0c5026bea87c84U,
  0xbecbe38b3edc6b82U, 0x3eac16173e079adfU, 0xbd9f877b3dfed04dU, 0xbe8f0026bdf81938U,
  0x3eb35c1bbede3f76U, 0x3e8b1e183ef11704U, 0xbe5aec6bbeb1cec5U, 0xbd803aa2bd249d9aU,
  0xbdb45e803e40ac02U, 0x3e89ef29be07009dU, 0xbdb2ef6dbdc8e017U, 0xbe462156be7d8bcfU,
  0xbd77f1c6be9262cdU, 0x3d6b6eff3e36cacbU, 0x3cbeca523cdde8aaU, 0x3d2fba9a3e1d90a8U,
  0xbe046114bd4565c2U, 0xbdc03ff13dc228beU, 0x3d578d4dbe5a6201U, 0x3e52817e3e8959d2U,
  0x3dfbd0d63de517d1U, 0x3cf81557bea37d89U, 0x3e2a4223bc20fbf7U, 0xbe18ee4abe8c892bU,
  0x3e1e8ae3be81a503U, 0x3e8a0dcbbdfe3b0eU, 0xbe0c93053d4c818cU, 0x3e25540fbe80b7e1U,
  0x3d31c5acbeb30d99U, 0x3cbc39303e8f0e66U, 0x3e477d7d3de3e7a8U, 0xbe7e2b3d3e5a6c56U,
  0x3e577c8ebe320738U, 0xbdc43a473e28721bU, 0xbe0fc5fb3dcf4ed4U, 0xbe1f22183df14fc8U,
  0xbdba93febe958a80U, 0xbdc8a8423e4b11d2U, 0x3dfff23dbe783a44U, 0x3e3aec98be1e5037U,
  0xbea438153ee436c1U, 0x3d4bf567be7c4adcU, 0x3e9a616bbdc7c1e6U, 0x3e5ac4bebd2e153dU,
  0x3e703f183e7919b1U, 0x3e8d84ef3ebebd3bU, 0x3ee1fce63ea2f67dU, 0x3e7dec9f3ddbd6d2U,
  0x3e5ef6c53eaee533U, 0xbdfc58da3e7ba0dcU, 0xbe0a79593adf84ccU, 0x3e37dc59bdb9c9eaU,
  0xbaa508fdbe8cc3b9U, 0x3dd36c27bcffa785U, 0xbe487b7d3e4420b7U, 0x3e01de01bdf79ce7U,
  0x3d00000bbebd1f71U, 0xbe3c6c66be3f0b6cU, 0xbea437b0bea365a0U, 0x3e2dfb133e03537dU,
  0xbe156b133d9779dfU, 0xbd581f433d30943fU, 0xbe9f63fe3eacad81U, 0x3e063a2e3da8b7feU,
  0x3e36a447bda8cc83U, 0x3c5cb91d3e3094dcU, 0xbe173b0fbe46be47U, 0x3db20d58be3495cbU,
  0x3e20c1663ebb5850U, 0xbe643dbc3e6badc6U, 0x3e6dc3773e5d5946U, 0x3e2e20a33e39d0bbU,
  0x3e1ae33a3f258e75U, 0xbe89329fbe894290U, 0xbe130e833f1ab3ebU, 0xbed822efbe6fba36U,
  0xbe8687e2beda6cd3U, 0xbe4c5db4bf170775U, 0xbef720ee3e9c6c7bU, 0xbcc9492abeec9ad8U,
  0x3ee1a78fbe8482d2U, 0x3e1254993f023f25U, 0xbe7a7d05bea6055dU, 0xbe6ef6763f03aa8fU,
  0x3ecb53e83f18c232U, 0xbe8e481abeb28f1fU, 0x3ca46d32bef3d903U, 0xbde944f5be24b986U,
  0x3eac3a6c3f1220a1U, 0xbf1eaa63bde52ce8U, 0x3f1aa94dbf458512U, 0x3c21c8e13f13905cU,
  0xbf29d54a3ec9796dU, 0xbe114196beb37489U, 0x3e3812af3e86fa80U, 0x3da65bb93e865439U,
  0xbed8320dbf1394f7U, 0x3f0db52cbe03234eU, 0x3ea544e7be9c1512U, 0xbec53039bef2e4d7U,
  0x3ce20f25bea88982U, 0x3dc07a67be472706U, 0xbe9edfea3e15f30dU, 0xbef6524f3f1240b9U,
  0xbe808e1ebe177815U, 0xbea2e828be642cd5U, 0x3ea224bfbc9f3b7aU, 0x3ec54998be5479deU,
  0xbdb3a5d9be22c48aU, 0xbe147fe8be65c114U, 0x3bcde9043e725f68U, 0x3c93708d3c88d55dU,
  0xbc885233bec50cf6U, 0x3ee543f7becc3e42U, 0x3dc5b082baf22548U, 0x3e2933a2beb2bd33U,
  0xbe88fe6ebe8d81bfU, 0xbf000ba4be220fa8U, 0x3ec635d13e4e9aebU, 0xbec710f13eec984dU,
  0x3dc67b8e3eafd8d0U, 0x3e7003d6bed00d64U, 0xbeb05e3cbe81c60fU, 0x3de4c4cd3e105f32U,
  0xbc229dde3d8098a3U, 0x3e2aee41bec41e5eU, 0x3e309cd6be7b060aU, 0xbe5750c43e95a1a2U,
  0xbe3590d9bee059d9U, 0xbd175585bdb8b2d5U, 0x3ea9cf87be1fe42eU, 0xbe64364c3e812c5bU,
  0x3e8dbf4cbdbebb35U, 0xbdbd01dcbdc47971U, 0x3ea1c165be39668dU, 0x3e023db53caf0194U,
  0xbe98b14d3eb052ffU, 0xbe86ca503e39b91eU, 0xbe56439fbe4da8ccU, 0x3c89515e3e88164dU,
  0xbecf29303dc01c47U, 0xbea60603bedc3ba8U, 0x3e13de53bd726354U, 0xbd26587c3eacf200U,
  0xbe93bc0abe912315U, 0x3f00508fbdf62943U, 0xbecc810e3edfc67dU, 0x3eba96533ede929fU,
  0x3e8be8fc3e1773cfU, 0x3e81e4ccbe32a3c1U, 0xbcd9f3e33ed8d32cU, 0xbe40ef17bcdef0a7U,
  0xbe9f5394be2f26dcU, 0x3efba42c3e11ee41U, 0xbee9e1673cbf1d9aU, 0x3ebc00703e4816cfU,
  0xbc6a20dc3ea7e2d5U, 0xbe6921cabded8326U, 0xbeb2b1d23d714f28U, 0x3d1be38abef47c87U,
  0x3ea16295be667ff9U, 0xbeb365f13dcad15cU, 0x3de50aa5be02b126U, 0x3ea256db3e066102U,
  0x3f23b6a1bebb4f96U, 0xbd81d450be28ac21U, 0xbdf07e053c2b1bdaU, 0x3e58feee3d4ec14aU,
  0x3e29de61be8b01ebU, 0xbd54b2593daa5feaU, 0x3daafa8fbe976a22U, 0xbf06020d3ee6f357U,
  0xbe7fca453dbd0bf8U, 0x3e841d7abe1d5d65U, 0x3ed119273edeec8bU, 0xbf0c415f3e858926U,
  0xbee0229c3dda0df5U, 0xbeb84e2fbe6c8272U, 0x3e83500bbead4308U, 0x3ec0c8863ee66bc2U,
  0xbacdea933e38f10aU, 0xbe8550b5be63b88cU, 0x3de1ab40bef59fa0U, 0xbe4501643d3253f9U,
  0x3e983c083e2ea6ccU, 0xbea236c73e7eb693U, 0xbceff966bec8ff18U, 0xbf180a093e145a70U,
  0xbf011c14bed65effU, 0xbeaf055c3e97edb4U, 0x3e846c22bf078e8cU, 0xbef1a8ae3e9cd9d6U,
  0x3ed8569ebdee3c10U, 0xbe85a6603ec74d51U, 0x3e717ef5be77207cU, 0xbee33c01bd55a8eaU,
  0xbd0353e7bedc6e3eU, 0xbef2e4783eaa152cU, 0x3dda8ad73d85d4daU, 0xbdbe0ccc3e69a5d7U,
  0x3f08a5d7bebbb618U, 0x3d9a8932be005646U, 0xbda259c53e24d4c3U, 0xbee17d80bd7071aeU,
  0x3f1382c03ecaf1beU, 0x3e7a6126bf011984U, 0xbef0b7ddbc2609afU, 0xbe8516713f0b95c0U,
  0xbdfb147a3eaa88dfU, 0x3ad2dbaa3ea7664bU, 0xbe5483723e3b2f7cU, 0xbe5c833a3f15f29bU,
  0x3e2b4c3abe77a473U, 0xbec267be3ed8916aU, 0xbbfb8887bdac18a6U, 0x3e64f703bece997fU,
  0xbeb33c113f0689ccU, 0x3e98d8cd3e9449b1U, 0x3df6bb21be55223aU, 0x3ea694703e330d43U,
  0x3e601d7fbdd11cb9U, 0x3ec52f2bbf15a826U, 0x3eab5c9ebe680d89U, 0xbe482a7fbe536036U,
  0xbe57e7f6be2a5ae1U, 0xbdc907cb3eef3040U, 0xbe812ac43f057610U, 0xbcc3cb323e5c2c01U,
  0x3def0f8cbea5d984U, 0x3efd1868be2687e6U, 0x3ee984a93e92de79U, 0xbea6873a3daa0611U,
  0xbe24009f3f6207eeU, 0xbf03fcbc3f86f178U, 0xbf5a4b36bf19c3c8U, 0xbee90c2c3dbae165U,
  0xbeb614a5bdc0ee9dU, 0x3fd417703f22b983U, 0xbf850e67bfa29c5fU, 0xbeb452f83f853eb7U,
  0x3e9f36d13f64bf96U, 0x3f7759e93eef2690U, 0xbfb764edbfbdadfdU, 0xbfc86ed23eadfd8eU,
  0x3e833174bf5e26a3U, 0x3f86ceddbf75cfcdU, 0xbe2feeb03f34fbbcU, 0xbf658a893f8c259aU,
  0x3e51940abe29fa84U, 0xbecd03753e9231eaU, 0xbed7afed3ebd2dbcU, 0xbe3135093ecc56b8U,
  0xbee4d9c73ee4d6eeU, 0xbe3184e4bddd563eU, 0xbec4baa73ea339f3U, 0xbe28aa8dbeff18edU,
  0x3e36a0aabe9e53c7U, 0x3eb0952cbe0c3dc7U, 0xbeecff393ecd60c8U, 0x3d9b354abe96c894U,
  0xbd29407a3edb2ffaU, 0xbdf784b5be10231cU, 0xbe9a77e9be89f177U, 0xbdf9dce3bef6b0c2U,
  0xbb4d329dU,
};


ai_handle g_network_weights_table[1 + 2] = {
  AI_HANDLE_PTR(AI_MAGIC_MARKER),
  AI_HANDLE_PTR(s_network_weights_array_u64),
  AI_HANDLE_PTR(AI_MAGIC_MARKER),
};

